{
  "config": {
    "bpe_vocab_size": 7987,
    "max_sentences": 32,
    "sentence_boundary_token": "<sent>",
    "pad_token": "<pad>",
    "bos_token": "<bos>",
    "eos_token": "<eos>",
    "mask_token": "<mask>",
    "noise_token": "<noise>",
    "min_frequency": 2
  },
  "vocab": {
    "<pad>": 0,
    "<bos>": 1,
    "<eos>": 2,
    "<mask>": 3,
    "<noise>": 4,
    "<sent>": 5,
    "<evidence>": 6,
    "<anomaly>": 7,
    "<confidence>": 8,
    "<reasoning>": 9,
    "<composition>": 10,
    "<temporal>": 11,
    "<unk>": 12,
    "%": 13,
    ",": 14,
    "-": 15,
    ".": 16,
    "0": 17,
    "1": 18,
    "2": 19,
    "3": 20,
    "4": 21,
    "5": 22,
    "6": 23,
    "7": 24,
    "8": 25,
    "9": 26,
    ":": 27,
    ";": 28,
    "?": 29,
    "_": 30,
    "a": 31,
    "b": 32,
    "c": 33,
    "d": 34,
    "e": 35,
    "f": 36,
    "g": 37,
    "h": 38,
    "i": 39,
    "j": 40,
    "k": 41,
    "l": 42,
    "m": 43,
    "n": 44,
    "o": 45,
    "p": 46,
    "r": 47,
    "s": 48,
    "t": 49,
    "u": 50,
    "v": 51,
    "w": 52,
    "y": 53,
    "z": 54,
    "an": 55,
    "an</w>": 56,
    "er": 57,
    "da": 58,
    "en": 59,
    "ti": 60,
    "il": 61,
    "si": 62,
    "di": 63,
    "si</w>": 64,
    "ang</w>": 65,
    "anc": 66,
    "al": 67,
    "kan</w>": 68,
    "ke": 69,
    "ang": 70,
    "ef": 71,
    "su": 72,
    "ri</w>": 73,
    "ter": 74,
    "on</w>": 75,
    "se": 76,
    "te": 77,
    "hef": 78,
    "hefe": 79,
    "on": 80,
    "in": 81,
    "ul": 82,
    "sim": 83,
    "or": 84,
    "pa": 85,
    "ar": 86,
    "pen": 87,
    "re": 88,
    "la": 89,
    "dari</w>": 90,
    "men": 91,
    "bu": 92,
    "tida": 93,
    "ng": 94,
    "hefei</w>": 95,
    "ance</w>": 96,
    "asi</w>": 97,
    "om": 98,
    "ra": 99,
    "ct</w>": 100,
    "jang": 101,
    "dianc": 102,
    "diancang</w>": 103,
    "al</w>": 104,
    "li": 105,
    "po": 106,
    "eri": 107,
    "kesim": 108,
    "kesimp": 109,
    "kesimpul": 110,
    "kesimpulan</w>": 111,
    "ju</w>": 112,
    "jangm": 113,
    "jangmo": 114,
    "jangmok</w>": 115,
    "kon": 116,
    "ai": 117,
    "fi": 118,
    "pl": 119,
    "meng": 120,
    "sa": 121,
    "ta": 122,
    "ja": 123,
    "tidak</w>": 124,
    "ngkan</w>": 125,
    "yang</w>": 126,
    "buk": 127,
    "bukt": 128,
    "bukti</w>": 129,
    "sn": 130,
    "sno": 131,
    "snow</w>": 132,
    "plu": 133,
    "plum</w>": 134,
    "pil": 135,
    "pill</w>": 136,
    "ksi</w>": 137,
    "per": 138,
    "di</w>": 139,
    "ya</w>": 140,
    "cu": 141,
    "pi": 142,
    "tion</w>": 143,
    "ss</w>": 144,
    "ili": 145,
    "fiv": 146,
    "five</w>": 147,
    "sw": 148,
    "swor": 149,
    "sword": 150,
    "swords</w>": 151,
    "ku": 152,
    "lo": 153,
    "enc": 154,
    "ence</w>": 155,
    "pencu": 156,
    "ce": 157,
    "ro": 158,
    "le": 159,
    "mar": 160,
    "marti": 161,
    "martial</w>": 162,
    "alli": 163,
    "alliance</w>": 164,
    "dar": 165,
    "dark": 166,
    "dark_": 167,
    "dark_f": 168,
    "dark_fa": 169,
    "dark_fac": 170,
    "dark_faction</w>": 171,
    "jang</w>": 172,
    "hang": 173,
    "hangi</w>": 174,
    "tae": 175,
    "taeul": 176,
    "taeul_": 177,
    "taeul_se": 178,
    "taeul_sect</w>": 179,
    "gy": 180,
    "gyer": 181,
    "gyery": 182,
    "gyeryon": 183,
    "gyeryong</w>": 184,
    "mer": 185,
    "merc": 186,
    "merch": 187,
    "merchan": 188,
    "merchant</w>": 189,
    "gu": 190,
    "guil": 191,
    "guild</w>": 192,
    "simh": 193,
    "simhy": 194,
    "simhye": 195,
    "simhyeon</w>": 196,
    "pav": 197,
    "pavili": 198,
    "pavilion</w>": 199,
    "com": 200,
    "gu</w>": 201,
    "ilm": 202,
    "ilmu</w>": 203,
    "pre": 204,
    "predi": 205,
    "tin": 206,
    "tinda": 207,
    "tindakan</w>": 208,
    "beri": 209,
    "beriku": 210,
    "berikut": 211,
    "berikutn": 212,
    "berikutnya</w>": 213,
    "blo": 214,
    "bloo": 215,
    "blood</w>": 216,
    "ser": 217,
    "serpen": 218,
    "serpent</w>": 219,
    "dance</w>": 220,
    "ste": 221,
    "step</w>": 222,
    "mu": 223,
    "pol": 224,
    "pola</w>": 225,
    "sum": 226,
    "anal": 227,
    "anali": 228,
    "analisi": 229,
    "analisis</w>": 230,
    "mengh": 231,
    "menghil": 232,
    "menghilang</w>": 233,
    "anom": 234,
    "anomal": 235,
    "ha": 236,
    "de": 237,
    "hefei": 238,
    "hefei_": 239,
    "hefei_b": 240,
    "hefei_br": 241,
    "hefei_branc": 242,
    "hefei_branch</w>": 243,
    "pat": 244,
    "patter": 245,
    "pattern</w>": 246,
    "terpi": 247,
    "terpisa": 248,
    "terpisah</w>": 249,
    "me": 250,
    "cro": 251,
    "cross</w>": 252,
    "ref": 253,
    "refer": 254,
    "reference</w>": 255,
    "keja": 256,
    "kejadi": 257,
    "kejadian</w>": 258,
    "terk": 259,
    "terkai": 260,
    "terkait</w>": 261,
    "at</w>": 262,
    "lap": 263,
    "lapor": 264,
    "laporan</w>": 265,
    "hu": 266,
    "hubu": 267,
    "predict</w>": 268,
    "perk": 269,
    "perki": 270,
    "perkira": 271,
    "perkirakan</w>": 272,
    "compo": 273,
    "compos": 274,
    "compose</w>": 275,
    "susu": 276,
    "susun</w>": 277,
    "ketida": 278,
    "ketidak": 279,
    "ketidakse": 280,
    "ketidaksesu": 281,
    "ketidaksesuai": 282,
    "ketidaksesuaian</w>": 283,
    "dete": 284,
    "deteksi</w>": 285,
    "veri": 286,
    "verif": 287,
    "verify</w>": 288,
    "cek</w>": 289,
    "konsi": 290,
    "konsis": 291,
    "konsist": 292,
    "konsisten": 293,
    "konsistensi</w>": 294,
    "ban": 295,
    "bandi": 296,
    "bandingkan</w>": 297,
    "tang": 298,
    "tangg": 299,
    "tanggal</w>": 300,
    "fil": 301,
    "filte": 302,
    "filter</w>": 303,
    "eli": 304,
    "elim": 305,
    "elimin": 306,
    "eliminasi</w>": 307,
    "rele": 308,
    "relev": 309,
    "relevan</w>": 310,
    "rec": 311,
    "recal": 312,
    "recall</w>": 313,
    "ing": 314,
    "ingat</w>": 315,
    "semu": 316,
    "semua</w>": 317,
    "hubungkan</w>": 318,
    "fra": 319,
    "frag": 320,
    "fragme": 321,
    "fragmen</w>": 322,
    "anomaly</w>": 323,
    "as": 324,
    "den": 325,
    "deng": 326,
    "dengan</w>": 327,
    "bi": 328,
    "ad": 329,
    "ada</w>": 330,
    "bar": 331,
    "baru</w>": 332,
    "pencuri</w>": 333,
    "masi</w>": 334,
    "konsum": 335,
    "konsumsi</w>": 336,
    "dala": 337,
    "dalam</w>": 338,
    "ber": 339,
    "ela": 340,
    "ting": 341,
    "pa</w>": 342,
    "inv": 343,
    "inve": 344,
    "inves": 345,
    "investi": 346,
    "investig": 347,
    "investigasi</w>": 348,
    "pencur": 349,
    "pencuri": 350,
    "pencurian</w>": 351,
    "ke</w>": 352,
    "inf": 353,
    "infor": 354,
    "informasi</w>": 355,
    "sumb": 356,
    "sumbe": 357,
    "sumber</w>": 358,
    "ca": 359,
    "ya": 360,
    "dat": 361,
    "data</w>": 362,
    "ah</w>": 363,
    "menu": 364,
    "menun": 365,
    "menunj": 366,
    "menunju": 367,
    "menunjuk": 368,
    "menunjukkan</w>": 369,
    "mi": 370,
    "misi</w>": 371,
    "assi": 372,
    "assig": 373,
    "assign</w>": 374,
    "sen": 375,
    "sendi": 376,
    "sendiri</w>": 377,
    "ka</w>": 378,
    "pil</w>": 379,
    "pasa": 380,
    "pasar</w>": 381,
    "gela": 382,
    "gelap</w>": 383,
    "tan": 384,
    "tanpa</w>": 385,
    "je": 386,
    "jeja": 387,
    "jejak</w>": 388,
    "suc": 389,
    "succe": 390,
    "success</w>": 391,
    "rat": 392,
    "rate</w>": 393,
    "pai": 394,
    "pair</w>": 395,
    "lebi": 396,
    "lebih</w>": 397,
    "tingg": 398,
    "tinggi</w>": 399,
    "bias": 400,
    "biasan": 401,
    "biasanya</w>": 402,
    "penal": 403,
    "penalar": 404,
    "penalaran</w>": 405,
    "sete": 406,
    "setela": 407,
    "setelah</w>": 408,
    "hari</w>": 409,
    "sam": 410,
    "sama</w>": 411,
    "temu": 412,
    "anomali</w>": 413,
    "insi": 414,
    "insid": 415,
    "inside</w>": 416,
    "jo": 417,
    "job</w>": 418,
    "perg": 419,
    "perger": 420,
    "pergera": 421,
    "pergerakan</w>": 422,
    "mengar": 423,
    "mengarah</w>": 424,
    "compl": 425,
    "comple": 426,
    "completion</w>": 427,
    "terse": 428,
    "tersedi": 429,
    "tersedia</w>": 430,
    "mem": 431,
    "memili": 432,
    "memilik": 433,
    "memiliki</w>": 434,
    "kone": 435,
    "koneksi</w>": 436,
    "con": 437,
    "confi": 438,
    "confid": 439,
    "confidence</w>": 440,
    "hasi": 441,
    "hasil</w>": 442,
    "ev": 443,
    "eval": 444,
    "evalu": 445,
    "evaluasi</w>": 446,
    "keper": 447,
    "keperca": 448,
    "kepercaya": 449,
    "kepercayaan</w>": 450,
    "menja": 451,
    "menjadi</w>": 452,
    "kun": 453,
    "kunc": 454,
    "kunci</w>": 455,
    "mengkon": 456,
    "mengkonfi": 457,
    "mengkonfir": 458,
    "mengkonfirmasi</w>": 459,
    "temuan</w>": 460,
    "berk": 461,
    "berkor": 462,
    "berkorela": 463,
    "berkorelasi</w>": 464,
    "cata": 465,
    "catat": 466,
    "catatan</w>": 467,
    "prediksi</w>": 468,
    "ters": 469,
    "tersang": 470,
    "tersangka</w>": 471,
    "ba": 472,
    "bah": 473,
    "bahw": 474,
    "bahwa</w>": 475,
    "berda": 476,
    "berdas": 477,
    "berdasar": 478,
    "berdasarkan</w>": 479,
    "terha": 480,
    "terhada": 481,
    "terhadap</w>": 482,
    "tingk": 483,
    "tingkat</w>": 484,
    "keya": 485,
    "keyak": 486,
    "keyakin": 487,
    "keyakinan</w>": 488,
    "mengin": 489,
    "mengindi": 490,
    "mengindik": 491,
    "mengindika": 492,
    "mengindikasi": 493,
    "mengindikasikan</w>": 494,
    "ran": 495,
    "ranta": 496,
    "rantai</w>": 497,
    "sia": 498,
    "siapa</w>": 499,
    "mencu": 500,
    "mencuri</w>": 501,
    "pro": 502,
    "prose": 503,
    "proses</w>": 504,
    "ded": 505,
    "dedu": 506,
    "deduksi</w>": 507,
    "berta": 508,
    "bertaha": 509,
    "bertahap</w>": 510,
    "hubung": 511,
    "hubungan</w>": 512,
    "ant": 513,
    "antar": 514,
    "antara</w>": 515,
    "dan</w>": 516,
    "pene": 517,
    "penel": 518,
    "penelu": 519,
    "penelusu": 520,
    "penelusur": 521,
    "penelusuran</w>": 522,
    "log": 523,
    "logi": 524,
    "logika</w>": 525,
    "lang": 526,
    "langk": 527,
    "langkah</w>": 528,
    "perha": 529,
    "perhati": 530,
    "perhatian</w>": 531,
    "ditemu": 532,
    "ditemukan</w>": 533,
    "terdeteksi</w>": 534,
    "terda": 535,
    "terdapa": 536,
    "terdapat</w>": 537,
    "kejang": 538,
    "kejangg": 539,
    "kejanggal": 540,
    "kejanggalan</w>": 541,
    "laz": 542,
    "lazi": 543,
    "lazim</w>": 544,
    "68</w>": 545,
    "62</w>": 546,
    "66</w>": 547,
    "67</w>": 548,
    "64</w>": 549,
    "58</w>": 550,
    "63</w>": 551,
    "73</w>": 552,
    "61</w>": 553,
    "74</w>": 554,
    "59</w>": 555,
    "72</w>": 556,
    "69</w>": 557,
    "70</w>": 558,
    "65</w>": 559,
    "71</w>": 560,
    "75</w>": 561,
    "56</w>": 562,
    "54</w>": 563,
    "76</w>": 564,
    "60</w>": 565,
    "46</w>": 566,
    "82</w>": 567,
    "57</w>": 568,
    "81</w>": 569,
    "84</w>": 570,
    "48</w>": 571,
    "55</w>": 572,
    "50</w>": 573,
    "51</w>": 574,
    "77</w>": 575,
    "80</w>": 576,
    "49</w>": 577,
    "53</w>": 578,
    "52</w>": 579,
    "44</w>": 580,
    "93</w>": 581,
    "78</w>": 582,
    "47</w>": 583,
    "88</w>": 584,
    "85</w>": 585
  },
  "merges": {
    "a|||n": 0,
    "a|||n</w>": 1,
    "e|||r": 2,
    "d|||a": 3,
    "e|||n": 4,
    "t|||i": 5,
    "i|||l": 6,
    "s|||i": 7,
    "d|||i": 8,
    "s|||i</w>": 9,
    "an|||g</w>": 10,
    "an|||c": 11,
    "a|||l": 12,
    "k|||an</w>": 13,
    "k|||e": 14,
    "an|||g": 15,
    "e|||f": 16,
    "s|||u": 17,
    "r|||i</w>": 18,
    "t|||er": 19,
    "o|||n</w>": 20,
    "s|||e": 21,
    "t|||e": 22,
    "h|||ef": 23,
    "hef|||e": 24,
    "o|||n": 25,
    "i|||n": 26,
    "u|||l": 27,
    "si|||m": 28,
    "o|||r": 29,
    "p|||a": 30,
    "a|||r": 31,
    "p|||en": 32,
    "r|||e": 33,
    "l|||a": 34,
    "da|||ri</w>": 35,
    "m|||en": 36,
    "b|||u": 37,
    "ti|||da": 38,
    "n|||g": 39,
    "hefe|||i</w>": 40,
    "anc|||e</w>": 41,
    "a|||si</w>": 42,
    "o|||m": 43,
    "r|||a": 44,
    "c|||t</w>": 45,
    "j|||ang": 46,
    "di|||anc": 47,
    "dianc|||ang</w>": 48,
    "a|||l</w>": 49,
    "l|||i": 50,
    "p|||o": 51,
    "er|||i": 52,
    "ke|||sim": 53,
    "kesim|||p": 54,
    "kesimp|||ul": 55,
    "kesimpul|||an</w>": 56,
    "j|||u</w>": 57,
    "jang|||m": 58,
    "jangm|||o": 59,
    "jangmo|||k</w>": 60,
    "k|||on": 61,
    "a|||i": 62,
    "f|||i": 63,
    "p|||l": 64,
    "men|||g": 65,
    "s|||a": 66,
    "t|||a": 67,
    "j|||a": 68,
    "tida|||k</w>": 69,
    "ng|||kan</w>": 70,
    "y|||ang</w>": 71,
    "bu|||k": 72,
    "buk|||t": 73,
    "bukt|||i</w>": 74,
    "s|||n": 75,
    "sn|||o": 76,
    "sno|||w</w>": 77,
    "pl|||u": 78,
    "plu|||m</w>": 79,
    "p|||il": 80,
    "pil|||l</w>": 81,
    "k|||si</w>": 82,
    "p|||er": 83,
    "d|||i</w>": 84,
    "y|||a</w>": 85,
    "c|||u": 86,
    "p|||i": 87,
    "ti|||on</w>": 88,
    "s|||s</w>": 89,
    "il|||i": 90,
    "fi|||v": 91,
    "fiv|||e</w>": 92,
    "s|||w": 93,
    "sw|||or": 94,
    "swor|||d": 95,
    "sword|||s</w>": 96,
    "k|||u": 97,
    "l|||o": 98,
    "en|||c": 99,
    "enc|||e</w>": 100,
    "pen|||cu": 101,
    "c|||e": 102,
    "r|||o": 103,
    "l|||e": 104,
    "m|||ar": 105,
    "mar|||ti": 106,
    "marti|||al</w>": 107,
    "al|||li": 108,
    "alli|||ance</w>": 109,
    "da|||r": 110,
    "dar|||k": 111,
    "dark|||_": 112,
    "dark_|||f": 113,
    "dark_f|||a": 114,
    "dark_fa|||c": 115,
    "dark_fac|||tion</w>": 116,
    "j|||ang</w>": 117,
    "h|||ang": 118,
    "hang|||i</w>": 119,
    "ta|||e": 120,
    "tae|||ul": 121,
    "taeul|||_": 122,
    "taeul_|||se": 123,
    "taeul_se|||ct</w>": 124,
    "g|||y": 125,
    "gy|||er": 126,
    "gyer|||y": 127,
    "gyery|||on": 128,
    "gyeryon|||g</w>": 129,
    "m|||er": 130,
    "mer|||c": 131,
    "merc|||h": 132,
    "merch|||an": 133,
    "merchan|||t</w>": 134,
    "g|||u": 135,
    "gu|||il": 136,
    "guil|||d</w>": 137,
    "sim|||h": 138,
    "simh|||y": 139,
    "simhy|||e": 140,
    "simhye|||on</w>": 141,
    "pa|||v": 142,
    "pav|||ili": 143,
    "pavili|||on</w>": 144,
    "c|||om": 145,
    "g|||u</w>": 146,
    "il|||m": 147,
    "ilm|||u</w>": 148,
    "p|||re": 149,
    "pre|||di": 150,
    "ti|||n": 151,
    "tin|||da": 152,
    "tinda|||kan</w>": 153,
    "b|||eri": 154,
    "beri|||ku": 155,
    "beriku|||t": 156,
    "berikut|||n": 157,
    "berikutn|||ya</w>": 158,
    "b|||lo": 159,
    "blo|||o": 160,
    "bloo|||d</w>": 161,
    "s|||er": 162,
    "ser|||pen": 163,
    "serpen|||t</w>": 164,
    "d|||ance</w>": 165,
    "s|||te": 166,
    "ste|||p</w>": 167,
    "m|||u": 168,
    "po|||l": 169,
    "pol|||a</w>": 170,
    "su|||m": 171,
    "an|||al": 172,
    "anal|||i": 173,
    "anali|||si": 174,
    "analisi|||s</w>": 175,
    "meng|||h": 176,
    "mengh|||il": 177,
    "menghil|||ang</w>": 178,
    "an|||om": 179,
    "anom|||al": 180,
    "h|||a": 181,
    "d|||e": 182,
    "hefe|||i": 183,
    "hefei|||_": 184,
    "hefei_|||b": 185,
    "hefei_b|||r": 186,
    "hefei_br|||anc": 187,
    "hefei_branc|||h</w>": 188,
    "pa|||t": 189,
    "pat|||ter": 190,
    "patter|||n</w>": 191,
    "ter|||pi": 192,
    "terpi|||sa": 193,
    "terpisa|||h</w>": 194,
    "m|||e": 195,
    "c|||ro": 196,
    "cro|||ss</w>": 197,
    "r|||ef": 198,
    "ref|||er": 199,
    "refer|||ence</w>": 200,
    "ke|||ja": 201,
    "keja|||di": 202,
    "kejadi|||an</w>": 203,
    "ter|||k": 204,
    "terk|||ai": 205,
    "terkai|||t</w>": 206,
    "a|||t</w>": 207,
    "la|||p": 208,
    "lap|||or": 209,
    "lapor|||an</w>": 210,
    "h|||u": 211,
    "hu|||bu": 212,
    "predi|||ct</w>": 213,
    "per|||k": 214,
    "perk|||i": 215,
    "perki|||ra": 216,
    "perkira|||kan</w>": 217,
    "com|||po": 218,
    "compo|||s": 219,
    "compos|||e</w>": 220,
    "su|||su": 221,
    "susu|||n</w>": 222,
    "ke|||tida": 223,
    "ketida|||k": 224,
    "ketidak|||se": 225,
    "ketidakse|||su": 226,
    "ketidaksesu|||ai": 227,
    "ketidaksesuai|||an</w>": 228,
    "de|||te": 229,
    "dete|||ksi</w>": 230,
    "v|||eri": 231,
    "veri|||f": 232,
    "verif|||y</w>": 233,
    "ce|||k</w>": 234,
    "kon|||si": 235,
    "konsi|||s": 236,
    "konsis|||t": 237,
    "konsist|||en": 238,
    "konsisten|||si</w>": 239,
    "b|||an": 240,
    "ban|||di": 241,
    "bandi|||ngkan</w>": 242,
    "t|||ang": 243,
    "tang|||g": 244,
    "tangg|||al</w>": 245,
    "f|||il": 246,
    "fil|||te": 247,
    "filte|||r</w>": 248,
    "e|||li": 249,
    "eli|||m": 250,
    "elim|||in": 251,
    "elimin|||asi</w>": 252,
    "re|||le": 253,
    "rele|||v": 254,
    "relev|||an</w>": 255,
    "re|||c": 256,
    "rec|||al": 257,
    "recal|||l</w>": 258,
    "in|||g": 259,
    "ing|||at</w>": 260,
    "se|||mu": 261,
    "semu|||a</w>": 262,
    "hubu|||ngkan</w>": 263,
    "f|||ra": 264,
    "fra|||g": 265,
    "frag|||me": 266,
    "fragme|||n</w>": 267,
    "anomal|||y</w>": 268,
    "a|||s": 269,
    "d|||en": 270,
    "den|||g": 271,
    "deng|||an</w>": 272,
    "b|||i": 273,
    "a|||d": 274,
    "ad|||a</w>": 275,
    "b|||ar": 276,
    "bar|||u</w>": 277,
    "pencu|||ri</w>": 278,
    "m|||asi</w>": 279,
    "kon|||sum": 280,
    "konsum|||si</w>": 281,
    "da|||la": 282,
    "dala|||m</w>": 283,
    "b|||er": 284,
    "e|||la": 285,
    "ti|||ng": 286,
    "p|||a</w>": 287,
    "in|||v": 288,
    "inv|||e": 289,
    "inve|||s": 290,
    "inves|||ti": 291,
    "investi|||g": 292,
    "investig|||asi</w>": 293,
    "pencu|||r": 294,
    "pencur|||i": 295,
    "pencuri|||an</w>": 296,
    "k|||e</w>": 297,
    "in|||f": 298,
    "inf|||or": 299,
    "infor|||masi</w>": 300,
    "sum|||b": 301,
    "sumb|||e": 302,
    "sumbe|||r</w>": 303,
    "c|||a": 304,
    "y|||a": 305,
    "da|||t": 306,
    "dat|||a</w>": 307,
    "a|||h</w>": 308,
    "men|||u": 309,
    "menu|||n": 310,
    "menun|||j": 311,
    "menunj|||u": 312,
    "menunju|||k": 313,
    "menunjuk|||kan</w>": 314,
    "m|||i": 315,
    "mi|||si</w>": 316,
    "as|||si": 317,
    "assi|||g": 318,
    "assig|||n</w>": 319,
    "s|||en": 320,
    "sen|||di": 321,
    "sendi|||ri</w>": 322,
    "k|||a</w>": 323,
    "pi|||l</w>": 324,
    "pa|||sa": 325,
    "pasa|||r</w>": 326,
    "g|||ela": 327,
    "gela|||p</w>": 328,
    "t|||an": 329,
    "tan|||pa</w>": 330,
    "j|||e": 331,
    "je|||ja": 332,
    "jeja|||k</w>": 333,
    "su|||c": 334,
    "suc|||ce": 335,
    "succe|||ss</w>": 336,
    "ra|||t": 337,
    "rat|||e</w>": 338,
    "pa|||i": 339,
    "pai|||r</w>": 340,
    "le|||bi": 341,
    "lebi|||h</w>": 342,
    "ting|||g": 343,
    "tingg|||i</w>": 344,
    "bi|||as": 345,
    "bias|||an": 346,
    "biasan|||ya</w>": 347,
    "pen|||al": 348,
    "penal|||ar": 349,
    "penalar|||an</w>": 350,
    "se|||te": 351,
    "sete|||la": 352,
    "setela|||h</w>": 353,
    "ha|||ri</w>": 354,
    "sa|||m": 355,
    "sam|||a</w>": 356,
    "te|||mu": 357,
    "anomal|||i</w>": 358,
    "in|||si": 359,
    "insi|||d": 360,
    "insid|||e</w>": 361,
    "j|||o": 362,
    "jo|||b</w>": 363,
    "per|||g": 364,
    "perg|||er": 365,
    "perger|||a": 366,
    "pergera|||kan</w>": 367,
    "meng|||ar": 368,
    "mengar|||ah</w>": 369,
    "com|||pl": 370,
    "compl|||e": 371,
    "comple|||tion</w>": 372,
    "ter|||se": 373,
    "terse|||di": 374,
    "tersedi|||a</w>": 375,
    "me|||m": 376,
    "mem|||ili": 377,
    "memili|||k": 378,
    "memilik|||i</w>": 379,
    "kon|||e": 380,
    "kone|||ksi</w>": 381,
    "c|||on": 382,
    "con|||fi": 383,
    "confi|||d": 384,
    "confid|||ence</w>": 385,
    "ha|||si": 386,
    "hasi|||l</w>": 387,
    "e|||v": 388,
    "ev|||al": 389,
    "eval|||u": 390,
    "evalu|||asi</w>": 391,
    "ke|||per": 392,
    "keper|||ca": 393,
    "keperca|||ya": 394,
    "kepercaya|||an</w>": 395,
    "men|||ja": 396,
    "menja|||di</w>": 397,
    "ku|||n": 398,
    "kun|||c": 399,
    "kunc|||i</w>": 400,
    "meng|||kon": 401,
    "mengkon|||fi": 402,
    "mengkonfi|||r": 403,
    "mengkonfir|||masi</w>": 404,
    "temu|||an</w>": 405,
    "ber|||k": 406,
    "berk|||or": 407,
    "berkor|||ela": 408,
    "berkorela|||si</w>": 409,
    "ca|||ta": 410,
    "cata|||t": 411,
    "catat|||an</w>": 412,
    "predi|||ksi</w>": 413,
    "ter|||s": 414,
    "ters|||ang": 415,
    "tersang|||ka</w>": 416,
    "b|||a": 417,
    "ba|||h": 418,
    "bah|||w": 419,
    "bahw|||a</w>": 420,
    "ber|||da": 421,
    "berda|||s": 422,
    "berdas|||ar": 423,
    "berdasar|||kan</w>": 424,
    "ter|||ha": 425,
    "terha|||da": 426,
    "terhada|||p</w>": 427,
    "ting|||k": 428,
    "tingk|||at</w>": 429,
    "ke|||ya": 430,
    "keya|||k": 431,
    "keyak|||in": 432,
    "keyakin|||an</w>": 433,
    "meng|||in": 434,
    "mengin|||di": 435,
    "mengindi|||k": 436,
    "mengindik|||a": 437,
    "mengindika|||si": 438,
    "mengindikasi|||kan</w>": 439,
    "r|||an": 440,
    "ran|||ta": 441,
    "ranta|||i</w>": 442,
    "si|||a": 443,
    "sia|||pa</w>": 444,
    "men|||cu": 445,
    "mencu|||ri</w>": 446,
    "p|||ro": 447,
    "pro|||se": 448,
    "prose|||s</w>": 449,
    "de|||d": 450,
    "ded|||u": 451,
    "dedu|||ksi</w>": 452,
    "ber|||ta": 453,
    "berta|||ha": 454,
    "bertaha|||p</w>": 455,
    "hubu|||ng": 456,
    "hubung|||an</w>": 457,
    "an|||t": 458,
    "ant|||ar": 459,
    "antar|||a</w>": 460,
    "d|||an</w>": 461,
    "pen|||e": 462,
    "pene|||l": 463,
    "penel|||u": 464,
    "penelu|||su": 465,
    "penelusu|||r": 466,
    "penelusur|||an</w>": 467,
    "lo|||g": 468,
    "log|||i": 469,
    "logi|||ka</w>": 470,
    "l|||ang": 471,
    "lang|||k": 472,
    "langk|||ah</w>": 473,
    "per|||ha": 474,
    "perha|||ti": 475,
    "perhati|||an</w>": 476,
    "di|||temu": 477,
    "ditemu|||kan</w>": 478,
    "ter|||deteksi</w>": 479,
    "ter|||da": 480,
    "terda|||pa": 481,
    "terdapa|||t</w>": 482,
    "ke|||jang": 483,
    "kejang|||g": 484,
    "kejangg|||al": 485,
    "kejanggal|||an</w>": 486,
    "la|||z": 487,
    "laz|||i": 488,
    "lazi|||m</w>": 489,
    "6|||8</w>": 490,
    "6|||2</w>": 491,
    "6|||6</w>": 492,
    "6|||7</w>": 493,
    "6|||4</w>": 494,
    "5|||8</w>": 495,
    "6|||3</w>": 496,
    "7|||3</w>": 497,
    "6|||1</w>": 498,
    "7|||4</w>": 499,
    "5|||9</w>": 500,
    "7|||2</w>": 501,
    "6|||9</w>": 502,
    "7|||0</w>": 503,
    "6|||5</w>": 504,
    "7|||1</w>": 505,
    "7|||5</w>": 506,
    "5|||6</w>": 507,
    "5|||4</w>": 508,
    "7|||6</w>": 509,
    "6|||0</w>": 510,
    "4|||6</w>": 511,
    "8|||2</w>": 512,
    "5|||7</w>": 513,
    "8|||1</w>": 514,
    "8|||4</w>": 515,
    "4|||8</w>": 516,
    "5|||5</w>": 517,
    "5|||0</w>": 518,
    "5|||1</w>": 519,
    "7|||7</w>": 520,
    "8|||0</w>": 521,
    "4|||9</w>": 522,
    "5|||3</w>": 523,
    "5|||2</w>": 524,
    "4|||4</w>": 525,
    "9|||3</w>": 526,
    "7|||8</w>": 527,
    "4|||7</w>": 528,
    "8|||8</w>": 529,
    "8|||5</w>": 530
  },
  "is_trained": true
}