{
  "config": {
    "bpe_vocab_size": 28000,
    "max_sentences": 32,
    "sentence_boundary_token": "<sent>",
    "pad_token": "<pad>",
    "bos_token": "<bos>",
    "eos_token": "<eos>",
    "mask_token": "<mask>",
    "noise_token": "<noise>",
    "min_frequency": 2
  },
  "vocab": {
    "<pad>": 0,
    "<bos>": 1,
    "<eos>": 2,
    "<mask>": 3,
    "<noise>": 4,
    "<sent>": 5,
    "<evidence>": 6,
    "<anomaly>": 7,
    "<confidence>": 8,
    "<reasoning>": 9,
    "<composition>": 10,
    "<temporal>": 11,
    "<unk>": 12,
    "%": 13,
    ",": 14,
    "-": 15,
    ".": 16,
    "0": 17,
    "1": 18,
    "2": 19,
    "3": 20,
    "4": 21,
    "6": 22,
    "7": 23,
    "8": 24,
    "9": 25,
    ":": 26,
    ";": 27,
    "?": 28,
    "_": 29,
    "a": 30,
    "b": 31,
    "c": 32,
    "d": 33,
    "e": 34,
    "f": 35,
    "g": 36,
    "h": 37,
    "i": 38,
    "j": 39,
    "k": 40,
    "l": 41,
    "m": 42,
    "n": 43,
    "o": 44,
    "p": 45,
    "r": 46,
    "s": 47,
    "t": 48,
    "u": 49,
    "v": 50,
    "w": 51,
    "y": 52,
    "z": 53,
    "an": 54,
    "an</w>": 55,
    "er": 56,
    "en": 57,
    "da": 58,
    "ti": 59,
    "il": 60,
    "si": 61,
    "di": 62,
    "ang</w>": 63,
    "si</w>": 64,
    "anc": 65,
    "kan</w>": 66,
    "al": 67,
    "su": 68,
    "ang": 69,
    "ri</w>": 70,
    "ke": 71,
    "ef": 72,
    "ter": 73,
    "se": 74,
    "te": 75,
    "pa": 76,
    "ng": 77,
    "on</w>": 78,
    "on": 79,
    "hef": 80,
    "hefe": 81,
    "enc": 82,
    "or": 83,
    "la": 84,
    "sim": 85,
    "ul": 86,
    "tida": 87,
    "ar": 88,
    "eng": 89,
    "dari</w>": 90,
    "re": 91,
    "bu": 92,
    "ance</w>": 93,
    "ra": 94,
    "om": 95,
    "hefei</w>": 96,
    "jang": 97,
    "sa": 98,
    "ju</w>": 99,
    "jangm": 100,
    "jangmo": 101,
    "jangmok</w>": 102,
    "al</w>": 103,
    "os": 104,
    "dianc": 105,
    "diancang</w>": 106,
    "ai": 107,
    "in": 108,
    "ja": 109,
    "kon": 110,
    "li": 111,
    "ct</w>": 112,
    "tidak</w>": 113,
    "eri": 114,
    "fi": 115,
    "meng": 116,
    "asi</w>": 117,
    "kesim": 118,
    "kesimp": 119,
    "kesimpul": 120,
    "kesimpulan</w>": 121,
    "di</w>": 122,
    "ngkan</w>": 123,
    "ksi</w>": 124,
    "pi": 125,
    "ya</w>": 126,
    "yang</w>": 127,
    "encu": 128,
    "ta": 129,
    "buk": 130,
    "bukt": 131,
    "bukti</w>": 132,
    "pen": 133,
    "per": 134,
    "lu": 135,
    "le": 136,
    "fiv": 137,
    "five</w>": 138,
    "sw": 139,
    "swor": 140,
    "sword": 141,
    "swords</w>": 142,
    "pencu": 143,
    "ence</w>": 144,
    "ce": 145,
    "ku": 146,
    "ili": 147,
    "sn": 148,
    "sno": 149,
    "snow</w>": 150,
    "plu": 151,
    "plum</w>": 152,
    "pil": 153,
    "pill</w>": 154,
    "mengh": 155,
    "menghil": 156,
    "menghilang</w>": 157,
    "lo": 158,
    "bi": 159,
    "de": 160,
    "anom": 161,
    "anomal": 162,
    "mar": 163,
    "marti": 164,
    "martial</w>": 165,
    "alli": 166,
    "alliance</w>": 167,
    "mu": 168,
    "anal": 169,
    "anali": 170,
    "analisi": 171,
    "analisis</w>": 172,
    "gy": 173,
    "gyer": 174,
    "gyery": 175,
    "gyeryon": 176,
    "gyeryong</w>": 177,
    "mer": 178,
    "merc": 179,
    "merch": 180,
    "merchan": 181,
    "merchant</w>": 182,
    "gu": 183,
    "guil": 184,
    "guild</w>": 185,
    "ha": 186,
    "cr": 187,
    "cros": 188,
    "cross</w>": 189,
    "ref": 190,
    "refer": 191,
    "reference</w>": 192,
    "keja": 193,
    "kejadi": 194,
    "kejadian</w>": 195,
    "simh": 196,
    "simhy": 197,
    "simhye": 198,
    "simhyeon</w>": 199,
    "pav": 200,
    "pavili": 201,
    "pavilion</w>": 202,
    "me": 203,
    "tion</w>": 204,
    "sum": 205,
    "blo": 206,
    "bloo": 207,
    "blood</w>": 208,
    "ser": 209,
    "serpen": 210,
    "serpent</w>": 211,
    "dance</w>": 212,
    "ste": 213,
    "step</w>": 214,
    "pre": 215,
    "predi": 216,
    "tin": 217,
    "tinda": 218,
    "tindakan</w>": 219,
    "beri": 220,
    "beriku": 221,
    "berikut": 222,
    "berikutn": 223,
    "berikutnya</w>": 224,
    "tae": 225,
    "taeul": 226,
    "taeul_": 227,
    "taeul_se": 228,
    "taeul_sect</w>": 229,
    "po": 230,
    "pol": 231,
    "pola</w>": 232,
    "jang</w>": 233,
    "hang": 234,
    "hangi</w>": 235,
    "ad": 236,
    "ada</w>": 237,
    "bar": 238,
    "baru</w>": 239,
    "pat": 240,
    "patter": 241,
    "pattern</w>": 242,
    "terpi": 243,
    "terpisa": 244,
    "terpisah</w>": 245,
    "com": 246,
    "comp": 247,
    "as": 248,
    "dete": 249,
    "deteksi</w>": 250,
    "gu</w>": 251,
    "ilm": 252,
    "ilmu</w>": 253,
    "ketida": 254,
    "ketidak": 255,
    "ketidakse": 256,
    "ketidaksesu": 257,
    "ketidaksesuai": 258,
    "ketidaksesuaian</w>": 259,
    "terk": 260,
    "terkai": 261,
    "terkait</w>": 262,
    "lap": 263,
    "lapor": 264,
    "laporan</w>": 265,
    "hu": 266,
    "hubu": 267,
    "ela": 268,
    "dar": 269,
    "dark": 270,
    "dark_": 271,
    "dark_f": 272,
    "dark_fa": 273,
    "dark_fac": 274,
    "dark_faction</w>": 275,
    "at</w>": 276,
    "anomaly</w>": 277,
    "ban": 278,
    "bandi": 279,
    "bandingkan</w>": 280,
    "tang": 281,
    "tangg": 282,
    "tanggal</w>": 283,
    "hefei": 284,
    "hefei_": 285,
    "hefei_b": 286,
    "hefei_br": 287,
    "hefei_branc": 288,
    "hefei_branch</w>": 289,
    "deng": 290,
    "dengan</w>": 291,
    "hubungkan</w>": 292,
    "fra": 293,
    "frag": 294,
    "fragme": 295,
    "fragmen</w>": 296,
    "pencuri</w>": 297,
    "compos": 298,
    "compose</w>": 299,
    "susu": 300,
    "susun</w>": 301,
    "rec": 302,
    "recal": 303,
    "recall</w>": 304,
    "ing": 305,
    "ingat</w>": 306,
    "semu": 307,
    "semua</w>": 308,
    "predict</w>": 309,
    "perk": 310,
    "perki": 311,
    "perkira": 312,
    "perkirakan</w>": 313,
    "veri": 314,
    "verif": 315,
    "verify</w>": 316,
    "cek</w>": 317,
    "konsi": 318,
    "konsis": 319,
    "konsist": 320,
    "konsisten": 321,
    "konsistensi</w>": 322,
    "konsum": 323,
    "konsumsi</w>": 324,
    "pa</w>": 325,
    "men": 326,
    "ting": 327,
    "fil": 328,
    "filte": 329,
    "filter</w>": 330,
    "eli": 331,
    "elim": 332,
    "elimin": 333,
    "eliminasi</w>": 334,
    "rele": 335,
    "relev": 336,
    "relevan</w>": 337,
    "pil</w>": 338,
    "pasa": 339,
    "pasar</w>": 340,
    "gela": 341,
    "gelap</w>": 342,
    "suc": 343,
    "succe": 344,
    "succes": 345,
    "success</w>": 346,
    "rat": 347,
    "rate</w>": 348,
    "pai": 349,
    "pair</w>": 350,
    "lebi": 351,
    "lebih</w>": 352,
    "tingg": 353,
    "tinggi</w>": 354,
    "bias": 355,
    "biasan": 356,
    "biasanya</w>": 357,
    "dala": 358,
    "dalam</w>": 359,
    "ber": 360,
    "pencur": 361,
    "pencuri": 362,
    "pencurian</w>": 363,
    "ka</w>": 364,
    "tan": 365,
    "tanpa</w>": 366,
    "je": 367,
    "jeja": 368,
    "jejak</w>": 369,
    "perg": 370,
    "perger": 371,
    "pergera": 372,
    "pergerakan</w>": 373,
    "masi</w>": 374,
    "inv": 375,
    "inve": 376,
    "inves": 377,
    "investi": 378,
    "investig": 379,
    "investigasi</w>": 380,
    "hari</w>": 381,
    "sam": 382,
    "sama</w>": 383,
    "dat": 384,
    "data</w>": 385,
    "menu": 386,
    "menun": 387,
    "menunj": 388,
    "menunju": 389,
    "menunjuk": 390,
    "menunjukkan</w>": 391,
    "ca": 392,
    "mi": 393,
    "misi</w>": 394,
    "assi": 395,
    "assig": 396,
    "assign</w>": 397,
    "sen": 398,
    "sendi": 399,
    "sendiri</w>": 400,
    "ka": 401,
    "sete": 402,
    "setela": 403,
    "setelah</w>": 404,
    "temu": 405,
    "ke</w>": 406,
    "sumb": 407,
    "sumbe": 408,
    "sumber</w>": 409,
    "prediksi</w>": 410,
    "ters": 411,
    "tersang": 412,
    "tersangka</w>": 413,
    "penal": 414,
    "penalar": 415,
    "penalaran</w>": 416,
    "menja": 417,
    "menjadi</w>": 418,
    "kun": 419,
    "kunc": 420,
    "kunci</w>": 421,
    "hasi": 422,
    "hasil</w>": 423,
    "inf": 424,
    "infor": 425,
    "informasi</w>": 426,
    "anomali</w>": 427,
    "ya": 428,
    "temuan</w>": 429,
    "berk": 430,
    "berkor": 431,
    "berkorela": 432,
    "berkorelasi</w>": 433,
    "cata": 434,
    "catat": 435,
    "catatan</w>": 436,
    "sia": 437,
    "siapa</w>": 438,
    "mencu": 439,
    "mencuri</w>": 440,
    "terse": 441,
    "tersedi": 442,
    "tersedia</w>": 443,
    "mem": 444,
    "memili": 445,
    "memilik": 446,
    "memiliki</w>": 447,
    "kone": 448,
    "koneksi</w>": 449,
    "con": 450,
    "confi": 451,
    "confid": 452,
    "confidence</w>": 453,
    "mengin": 454,
    "mengindi": 455,
    "mengindika": 456,
    "mengindikasi": 457,
    "mengindikasikan</w>": 458,
    "pene": 459,
    "penelu": 460,
    "penelusu": 461,
    "penelusur": 462,
    "penelusuran</w>": 463,
    "log": 464,
    "logi": 465,
    "logika</w>": 466,
    "pr": 467,
    "pro": 468,
    "prose": 469,
    "proses</w>": 470,
    "ded": 471,
    "dedu": 472,
    "deduksi</w>": 473,
    "mengkon": 474,
    "mengkonfi": 475,
    "mengkonfir": 476,
    "mengkonfirmasi</w>": 477,
    "comple": 478,
    "completion</w>": 479,
    "ba": 480,
    "bah": 481,
    "bahw": 482,
    "bahwa</w>": 483,
    "ev": 484,
    "eval": 485,
    "evalu": 486,
    "evaluasi</w>": 487,
    "keper": 488,
    "keperca": 489,
    "kepercaya": 490,
    "kepercayaan</w>": 491,
    "berta": 492,
    "bertaha": 493,
    "bertahap</w>": 494,
    "insi": 495,
    "insid": 496,
    "inside</w>": 497,
    "jo": 498,
    "job</w>": 499
  },
  "merges": {
    "a|||n": 0,
    "a|||n</w>": 1,
    "e|||r": 2,
    "e|||n": 3,
    "d|||a": 4,
    "t|||i": 5,
    "i|||l": 6,
    "s|||i": 7,
    "d|||i": 8,
    "an|||g</w>": 9,
    "s|||i</w>": 10,
    "an|||c": 11,
    "k|||an</w>": 12,
    "a|||l": 13,
    "s|||u": 14,
    "an|||g": 15,
    "r|||i</w>": 16,
    "k|||e": 17,
    "e|||f": 18,
    "t|||er": 19,
    "s|||e": 20,
    "t|||e": 21,
    "p|||a": 22,
    "n|||g": 23,
    "o|||n</w>": 24,
    "o|||n": 25,
    "h|||ef": 26,
    "hef|||e": 27,
    "en|||c": 28,
    "o|||r": 29,
    "l|||a": 30,
    "si|||m": 31,
    "u|||l": 32,
    "ti|||da": 33,
    "a|||r": 34,
    "en|||g": 35,
    "da|||ri</w>": 36,
    "r|||e": 37,
    "b|||u": 38,
    "anc|||e</w>": 39,
    "r|||a": 40,
    "o|||m": 41,
    "hefe|||i</w>": 42,
    "j|||ang": 43,
    "s|||a": 44,
    "j|||u</w>": 45,
    "jang|||m": 46,
    "jangm|||o": 47,
    "jangmo|||k</w>": 48,
    "a|||l</w>": 49,
    "o|||s": 50,
    "di|||anc": 51,
    "dianc|||ang</w>": 52,
    "a|||i": 53,
    "i|||n": 54,
    "j|||a": 55,
    "k|||on": 56,
    "l|||i": 57,
    "c|||t</w>": 58,
    "tida|||k</w>": 59,
    "er|||i": 60,
    "f|||i": 61,
    "m|||eng": 62,
    "a|||si</w>": 63,
    "ke|||sim": 64,
    "kesim|||p": 65,
    "kesimp|||ul": 66,
    "kesimpul|||an</w>": 67,
    "d|||i</w>": 68,
    "ng|||kan</w>": 69,
    "k|||si</w>": 70,
    "p|||i": 71,
    "y|||a</w>": 72,
    "y|||ang</w>": 73,
    "enc|||u": 74,
    "t|||a": 75,
    "bu|||k": 76,
    "buk|||t": 77,
    "bukt|||i</w>": 78,
    "p|||en": 79,
    "p|||er": 80,
    "l|||u": 81,
    "l|||e": 82,
    "fi|||v": 83,
    "fiv|||e</w>": 84,
    "s|||w": 85,
    "sw|||or": 86,
    "swor|||d": 87,
    "sword|||s</w>": 88,
    "p|||encu": 89,
    "enc|||e</w>": 90,
    "c|||e": 91,
    "k|||u": 92,
    "il|||i": 93,
    "s|||n": 94,
    "sn|||o": 95,
    "sno|||w</w>": 96,
    "p|||lu": 97,
    "plu|||m</w>": 98,
    "p|||il": 99,
    "pil|||l</w>": 100,
    "meng|||h": 101,
    "mengh|||il": 102,
    "menghil|||ang</w>": 103,
    "l|||o": 104,
    "b|||i": 105,
    "d|||e": 106,
    "an|||om": 107,
    "anom|||al": 108,
    "m|||ar": 109,
    "mar|||ti": 110,
    "marti|||al</w>": 111,
    "al|||li": 112,
    "alli|||ance</w>": 113,
    "m|||u": 114,
    "an|||al": 115,
    "anal|||i": 116,
    "anali|||si": 117,
    "analisi|||s</w>": 118,
    "g|||y": 119,
    "gy|||er": 120,
    "gyer|||y": 121,
    "gyery|||on": 122,
    "gyeryon|||g</w>": 123,
    "m|||er": 124,
    "mer|||c": 125,
    "merc|||h": 126,
    "merch|||an": 127,
    "merchan|||t</w>": 128,
    "g|||u": 129,
    "gu|||il": 130,
    "guil|||d</w>": 131,
    "h|||a": 132,
    "c|||r": 133,
    "cr|||os": 134,
    "cros|||s</w>": 135,
    "r|||ef": 136,
    "ref|||er": 137,
    "refer|||ence</w>": 138,
    "ke|||ja": 139,
    "keja|||di": 140,
    "kejadi|||an</w>": 141,
    "sim|||h": 142,
    "simh|||y": 143,
    "simhy|||e": 144,
    "simhye|||on</w>": 145,
    "pa|||v": 146,
    "pav|||ili": 147,
    "pavili|||on</w>": 148,
    "m|||e": 149,
    "ti|||on</w>": 150,
    "su|||m": 151,
    "b|||lo": 152,
    "blo|||o": 153,
    "bloo|||d</w>": 154,
    "s|||er": 155,
    "ser|||pen": 156,
    "serpen|||t</w>": 157,
    "d|||ance</w>": 158,
    "s|||te": 159,
    "ste|||p</w>": 160,
    "p|||re": 161,
    "pre|||di": 162,
    "ti|||n": 163,
    "tin|||da": 164,
    "tinda|||kan</w>": 165,
    "b|||eri": 166,
    "beri|||ku": 167,
    "beriku|||t": 168,
    "berikut|||n": 169,
    "berikutn|||ya</w>": 170,
    "ta|||e": 171,
    "tae|||ul": 172,
    "taeul|||_": 173,
    "taeul_|||se": 174,
    "taeul_se|||ct</w>": 175,
    "p|||o": 176,
    "po|||l": 177,
    "pol|||a</w>": 178,
    "j|||ang</w>": 179,
    "h|||ang": 180,
    "hang|||i</w>": 181,
    "a|||d": 182,
    "ad|||a</w>": 183,
    "b|||ar": 184,
    "bar|||u</w>": 185,
    "pa|||t": 186,
    "pat|||ter": 187,
    "patter|||n</w>": 188,
    "ter|||pi": 189,
    "terpi|||sa": 190,
    "terpisa|||h</w>": 191,
    "c|||om": 192,
    "com|||p": 193,
    "a|||s": 194,
    "de|||te": 195,
    "dete|||ksi</w>": 196,
    "g|||u</w>": 197,
    "il|||m": 198,
    "ilm|||u</w>": 199,
    "ke|||tida": 200,
    "ketida|||k": 201,
    "ketidak|||se": 202,
    "ketidakse|||su": 203,
    "ketidaksesu|||ai": 204,
    "ketidaksesuai|||an</w>": 205,
    "ter|||k": 206,
    "terk|||ai": 207,
    "terkai|||t</w>": 208,
    "la|||p": 209,
    "lap|||or": 210,
    "lapor|||an</w>": 211,
    "h|||u": 212,
    "hu|||bu": 213,
    "e|||la": 214,
    "da|||r": 215,
    "dar|||k": 216,
    "dark|||_": 217,
    "dark_|||f": 218,
    "dark_f|||a": 219,
    "dark_fa|||c": 220,
    "dark_fac|||tion</w>": 221,
    "a|||t</w>": 222,
    "anomal|||y</w>": 223,
    "b|||an": 224,
    "ban|||di": 225,
    "bandi|||ngkan</w>": 226,
    "t|||ang": 227,
    "tang|||g": 228,
    "tangg|||al</w>": 229,
    "hefe|||i": 230,
    "hefei|||_": 231,
    "hefei_|||b": 232,
    "hefei_b|||r": 233,
    "hefei_br|||anc": 234,
    "hefei_branc|||h</w>": 235,
    "d|||eng": 236,
    "deng|||an</w>": 237,
    "hubu|||ngkan</w>": 238,
    "f|||ra": 239,
    "fra|||g": 240,
    "frag|||me": 241,
    "fragme|||n</w>": 242,
    "pencu|||ri</w>": 243,
    "comp|||os": 244,
    "compos|||e</w>": 245,
    "su|||su": 246,
    "susu|||n</w>": 247,
    "re|||c": 248,
    "rec|||al": 249,
    "recal|||l</w>": 250,
    "i|||ng": 251,
    "ing|||at</w>": 252,
    "se|||mu": 253,
    "semu|||a</w>": 254,
    "predi|||ct</w>": 255,
    "per|||k": 256,
    "perk|||i": 257,
    "perki|||ra": 258,
    "perkira|||kan</w>": 259,
    "v|||eri": 260,
    "veri|||f": 261,
    "verif|||y</w>": 262,
    "ce|||k</w>": 263,
    "kon|||si": 264,
    "konsi|||s": 265,
    "konsis|||t": 266,
    "konsist|||en": 267,
    "konsisten|||si</w>": 268,
    "kon|||sum": 269,
    "konsum|||si</w>": 270,
    "p|||a</w>": 271,
    "m|||en": 272,
    "ti|||ng": 273,
    "f|||il": 274,
    "fil|||te": 275,
    "filte|||r</w>": 276,
    "e|||li": 277,
    "eli|||m": 278,
    "elim|||in": 279,
    "elimin|||asi</w>": 280,
    "re|||le": 281,
    "rele|||v": 282,
    "relev|||an</w>": 283,
    "pi|||l</w>": 284,
    "pa|||sa": 285,
    "pasa|||r</w>": 286,
    "g|||ela": 287,
    "gela|||p</w>": 288,
    "su|||c": 289,
    "suc|||ce": 290,
    "succe|||s": 291,
    "succes|||s</w>": 292,
    "ra|||t": 293,
    "rat|||e</w>": 294,
    "pa|||i": 295,
    "pai|||r</w>": 296,
    "le|||bi": 297,
    "lebi|||h</w>": 298,
    "ting|||g": 299,
    "tingg|||i</w>": 300,
    "bi|||as": 301,
    "bias|||an": 302,
    "biasan|||ya</w>": 303,
    "da|||la": 304,
    "dala|||m</w>": 305,
    "b|||er": 306,
    "pencu|||r": 307,
    "pencur|||i": 308,
    "pencuri|||an</w>": 309,
    "k|||a</w>": 310,
    "t|||an": 311,
    "tan|||pa</w>": 312,
    "j|||e": 313,
    "je|||ja": 314,
    "jeja|||k</w>": 315,
    "per|||g": 316,
    "perg|||er": 317,
    "perger|||a": 318,
    "pergera|||kan</w>": 319,
    "m|||asi</w>": 320,
    "in|||v": 321,
    "inv|||e": 322,
    "inve|||s": 323,
    "inves|||ti": 324,
    "investi|||g": 325,
    "investig|||asi</w>": 326,
    "ha|||ri</w>": 327,
    "sa|||m": 328,
    "sam|||a</w>": 329,
    "da|||t": 330,
    "dat|||a</w>": 331,
    "men|||u": 332,
    "menu|||n": 333,
    "menun|||j": 334,
    "menunj|||u": 335,
    "menunju|||k": 336,
    "menunjuk|||kan</w>": 337,
    "c|||a": 338,
    "m|||i": 339,
    "mi|||si</w>": 340,
    "as|||si": 341,
    "assi|||g": 342,
    "assig|||n</w>": 343,
    "s|||en": 344,
    "sen|||di": 345,
    "sendi|||ri</w>": 346,
    "k|||a": 347,
    "se|||te": 348,
    "sete|||la": 349,
    "setela|||h</w>": 350,
    "te|||mu": 351,
    "k|||e</w>": 352,
    "sum|||b": 353,
    "sumb|||e": 354,
    "sumbe|||r</w>": 355,
    "predi|||ksi</w>": 356,
    "ter|||s": 357,
    "ters|||ang": 358,
    "tersang|||ka</w>": 359,
    "pen|||al": 360,
    "penal|||ar": 361,
    "penalar|||an</w>": 362,
    "men|||ja": 363,
    "menja|||di</w>": 364,
    "ku|||n": 365,
    "kun|||c": 366,
    "kunc|||i</w>": 367,
    "ha|||si": 368,
    "hasi|||l</w>": 369,
    "in|||f": 370,
    "inf|||or": 371,
    "infor|||masi</w>": 372,
    "anomal|||i</w>": 373,
    "y|||a": 374,
    "temu|||an</w>": 375,
    "ber|||k": 376,
    "berk|||or": 377,
    "berkor|||ela": 378,
    "berkorela|||si</w>": 379,
    "ca|||ta": 380,
    "cata|||t": 381,
    "catat|||an</w>": 382,
    "si|||a": 383,
    "sia|||pa</w>": 384,
    "m|||encu": 385,
    "mencu|||ri</w>": 386,
    "ter|||se": 387,
    "terse|||di": 388,
    "tersedi|||a</w>": 389,
    "me|||m": 390,
    "mem|||ili": 391,
    "memili|||k": 392,
    "memilik|||i</w>": 393,
    "kon|||e": 394,
    "kone|||ksi</w>": 395,
    "c|||on": 396,
    "con|||fi": 397,
    "confi|||d": 398,
    "confid|||ence</w>": 399,
    "meng|||in": 400,
    "mengin|||di": 401,
    "mengindi|||ka": 402,
    "mengindika|||si": 403,
    "mengindikasi|||kan</w>": 404,
    "pen|||e": 405,
    "pene|||lu": 406,
    "penelu|||su": 407,
    "penelusu|||r": 408,
    "penelusur|||an</w>": 409,
    "lo|||g": 410,
    "log|||i": 411,
    "logi|||ka</w>": 412,
    "p|||r": 413,
    "pr|||o": 414,
    "pro|||se": 415,
    "prose|||s</w>": 416,
    "de|||d": 417,
    "ded|||u": 418,
    "dedu|||ksi</w>": 419,
    "meng|||kon": 420,
    "mengkon|||fi": 421,
    "mengkonfi|||r": 422,
    "mengkonfir|||masi</w>": 423,
    "comp|||le": 424,
    "comple|||tion</w>": 425,
    "b|||a": 426,
    "ba|||h": 427,
    "bah|||w": 428,
    "bahw|||a</w>": 429,
    "e|||v": 430,
    "ev|||al": 431,
    "eval|||u": 432,
    "evalu|||asi</w>": 433,
    "ke|||per": 434,
    "keper|||ca": 435,
    "keperca|||ya": 436,
    "kepercaya|||an</w>": 437,
    "ber|||ta": 438,
    "berta|||ha": 439,
    "bertaha|||p</w>": 440,
    "in|||si": 441,
    "insi|||d": 442,
    "insid|||e</w>": 443,
    "j|||o": 444,
    "jo|||b</w>": 445
  },
  "is_trained": true
}